#ifndef SINEWAVE_MODEL_H
#define SINEWAVE_MODEL_H


unsigned int Sinewave_model_len = 3164;
unsigned char Sinewave_model[] = {
 0x1c, 0x00, 0x00, 0x00, 0x54, 0x46, 0x4c, 0x33, 0x14, 0x00, 0x20, 0x00,
  0x1c, 0x00, 0x18, 0x00, 0x14, 0x00, 0x10, 0x00, 0x0c, 0x00, 0x00, 0x00,
  0x08, 0x00, 0x04, 0x00, 0x14, 0x00, 0x00, 0x00, 0x1c, 0x00, 0x00, 0x00,
  0x98, 0x00, 0x00, 0x00, 0xf0, 0x00, 0x00, 0x00, 0x14, 0x07, 0x00, 0x00,
  0x24, 0x07, 0x00, 0x00, 0x08, 0x0c, 0x00, 0x00, 0x03, 0x00, 0x00, 0x00,
  0x01, 0x00, 0x00, 0x00, 0x10, 0x00, 0x00, 0x00, 0x00, 0x00, 0x0a, 0x00,
  0x10, 0x00, 0x0c, 0x00, 0x08, 0x00, 0x04, 0x00, 0x0a, 0x00, 0x00, 0x00,
  0x0c, 0x00, 0x00, 0x00, 0x1c, 0x00, 0x00, 0x00, 0x3c, 0x00, 0x00, 0x00,
  0x0f, 0x00, 0x00, 0x00, 0x73, 0x65, 0x72, 0x76, 0x69, 0x6e, 0x67, 0x5f,
  0x64, 0x65, 0x66, 0x61, 0x75, 0x6c, 0x74, 0x00, 0x01, 0x00, 0x00, 0x00,
  0x04, 0x00, 0x00, 0x00, 0x90, 0xff, 0xff, 0xff, 0x09, 0x00, 0x00, 0x00,
  0x04, 0x00, 0x00, 0x00, 0x08, 0x00, 0x00, 0x00, 0x6f, 0x75, 0x74, 0x70,
  0x75, 0x74, 0x5f, 0x30, 0x00, 0x00, 0x00, 0x00, 0x01, 0x00, 0x00, 0x00,
  0x04, 0x00, 0x00, 0x00, 0xba, 0xf9, 0xff, 0xff, 0x04, 0x00, 0x00, 0x00,
  0x0c, 0x00, 0x00, 0x00, 0x6b, 0x65, 0x72, 0x61, 0x73, 0x5f, 0x74, 0x65,
  0x6e, 0x73, 0x6f, 0x72, 0x00, 0x00, 0x00, 0x00, 0x02, 0x00, 0x00, 0x00,
  0x34, 0x00, 0x00, 0x00, 0x04, 0x00, 0x00, 0x00, 0xdc, 0xff, 0xff, 0xff,
  0x0c, 0x00, 0x00, 0x00, 0x04, 0x00, 0x00, 0x00, 0x13, 0x00, 0x00, 0x00,
  0x43, 0x4f, 0x4e, 0x56, 0x45, 0x52, 0x53, 0x49, 0x4f, 0x4e, 0x5f, 0x4d,
  0x45, 0x54, 0x41, 0x44, 0x41, 0x54, 0x41, 0x00, 0x08, 0x00, 0x0c, 0x00,
  0x08, 0x00, 0x04, 0x00, 0x08, 0x00, 0x00, 0x00, 0x0b, 0x00, 0x00, 0x00,
  0x04, 0x00, 0x00, 0x00, 0x13, 0x00, 0x00, 0x00, 0x6d, 0x69, 0x6e, 0x5f,
  0x72, 0x75, 0x6e, 0x74, 0x69, 0x6d, 0x65, 0x5f, 0x76, 0x65, 0x72, 0x73,
  0x69, 0x6f, 0x6e, 0x00, 0x0d, 0x00, 0x00, 0x00, 0x20, 0x06, 0x00, 0x00,
  0x18, 0x06, 0x00, 0x00, 0xc8, 0x05, 0x00, 0x00, 0xac, 0x05, 0x00, 0x00,
  0x5c, 0x05, 0x00, 0x00, 0x4c, 0x01, 0x00, 0x00, 0xfc, 0x00, 0x00, 0x00,
  0xac, 0x00, 0x00, 0x00, 0xa4, 0x00, 0x00, 0x00, 0x9c, 0x00, 0x00, 0x00,
  0x94, 0x00, 0x00, 0x00, 0x74, 0x00, 0x00, 0x00, 0x04, 0x00, 0x00, 0x00,
  0x6a, 0xfa, 0xff, 0xff, 0x04, 0x00, 0x00, 0x00, 0x60, 0x00, 0x00, 0x00,
  0x0c, 0x00, 0x00, 0x00, 0x08, 0x00, 0x0e, 0x00, 0x08, 0x00, 0x04, 0x00,
  0x08, 0x00, 0x00, 0x00, 0x10, 0x00, 0x00, 0x00, 0x28, 0x00, 0x00, 0x00,
  0x00, 0x00, 0x06, 0x00, 0x08, 0x00, 0x04, 0x00, 0x06, 0x00, 0x00, 0x00,
  0x04, 0x00, 0x00, 0x00, 0x01, 0x00, 0x00, 0x00, 0xea, 0x03, 0x00, 0x00,
  0x0c, 0x00, 0x18, 0x00, 0x14, 0x00, 0x10, 0x00, 0x0c, 0x00, 0x04, 0x00,
  0x0c, 0x00, 0x00, 0x00, 0x07, 0xfb, 0xf7, 0xe3, 0x6d, 0xe7, 0x01, 0x38,
  0x02, 0x00, 0x00, 0x00, 0x02, 0x00, 0x00, 0x00, 0x04, 0x00, 0x00, 0x00,
  0x06, 0x00, 0x00, 0x00, 0x32, 0x2e, 0x32, 0x30, 0x2e, 0x30, 0x00, 0x00,
  0xd6, 0xfa, 0xff, 0xff, 0x04, 0x00, 0x00, 0x00, 0x10, 0x00, 0x00, 0x00,
  0x31, 0x2e, 0x35, 0x2e, 0x30, 0x00, 0x00, 0x00, 0x00, 0x00, 0x00, 0x00,
  0x00, 0x00, 0x00, 0x00, 0xd4, 0xf5, 0xff, 0xff, 0xd8, 0xf5, 0xff, 0xff,
  0xdc, 0xf5, 0xff, 0xff, 0xfe, 0xfa, 0xff, 0xff, 0x04, 0x00, 0x00, 0x00,
  0x40, 0x00, 0x00, 0x00, 0x7a, 0x3d, 0x1e, 0x3e, 0x00, 0x00, 0x00, 0x00,
  0x53, 0x6e, 0xe5, 0xbd, 0x00, 0x00, 0x00, 0x00, 0x00, 0x00, 0x00, 0x00,
  0x4e, 0xc1, 0x16, 0xbe, 0x9d, 0x20, 0xcf, 0xbd, 0x5b, 0x94, 0xe6, 0x3a,
  0xf2, 0xe7, 0x1c, 0xbe, 0x00, 0x00, 0x00, 0x00, 0x00, 0x00, 0x00, 0x00,
  0x5f, 0xd4, 0xee, 0xbd, 0x6c, 0x21, 0xf2, 0x3d, 0x80, 0x6f, 0x97, 0xbb,
  0x00, 0x00, 0x00, 0x00, 0x00, 0x00, 0x00, 0x00, 0x4a, 0xfb, 0xff, 0xff,
  0x04, 0x00, 0x00, 0x00, 0x40, 0x00, 0x00, 0x00, 0x19, 0xe3, 0x81, 0x3e,
  0x6e, 0xfe, 0x0b, 0xbf, 0x10, 0x3b, 0xc7, 0x3d, 0x30, 0x56, 0x45, 0xbd,
  0xe6, 0x4f, 0xfe, 0xbe, 0x37, 0xec, 0x46, 0x3e, 0x85, 0x3b, 0xb7, 0x3d,
  0xb6, 0x00, 0xbd, 0x3e, 0x77, 0x66, 0x0c, 0x3e, 0x20, 0x52, 0x97, 0xbc,
  0x96, 0x0c, 0x19, 0xbe, 0x49, 0xbe, 0xce, 0x3d, 0x9d, 0x5c, 0x78, 0x3e,
  0xa5, 0x29, 0xcf, 0x3e, 0xfa, 0x50, 0xf9, 0xbe, 0x7c, 0x81, 0x13, 0xbf,
  0x96, 0xfb, 0xff, 0xff, 0x04, 0x00, 0x00, 0x00, 0x00, 0x04, 0x00, 0x00,
  0x58, 0xc6, 0x31, 0x3d, 0xe7, 0x77, 0xaa, 0x3e, 0x9f, 0x49, 0xa5, 0xbe,
  0xd0, 0x83, 0x83, 0xbc, 0x20, 0xfb, 0xac, 0x3c, 0xe8, 0x13, 0xa6, 0xbd,
  0x15, 0xf8, 0x86, 0xbe, 0x62, 0x1f, 0x4c, 0x3e, 0x6e, 0xb6, 0x01, 0xbe,
  0x9b, 0x21, 0xc1, 0xbe, 0xe8, 0xb5, 0x5e, 0xbd, 0x06, 0xda, 0x9f, 0xbe,
  0x34, 0xeb, 0xb9, 0x3e, 0x2a, 0x31, 0x09, 0x3d, 0x08, 0xd7, 0xe9, 0xbd,
  0x18, 0xea, 0x24, 0x3d, 0xba, 0x24, 0xd6, 0x3c, 0x05, 0xf9, 0xc7, 0x3e,
  0x4e, 0x6e, 0xfb, 0xbd, 0x36, 0xfb, 0x14, 0x3e, 0x06, 0xc1, 0x5f, 0x3e,
  0x85, 0x42, 0x8e, 0xbd, 0x79, 0xb0, 0x5d, 0xbe, 0x65, 0x61, 0x56, 0x3e,
  0x51, 0x7f, 0x34, 0xbe, 0x81, 0x32, 0x43, 0xbe, 0x04, 0xf0, 0x8a, 0xbe,
  0x41, 0xb4, 0x34, 0x3e, 0xea, 0x2a, 0x7e, 0xbc, 0x8d, 0x5b, 0xe1, 0x3d,
  0x47, 0xb5, 0x93, 0x3e, 0x13, 0x33, 0xbe, 0xbe, 0x28, 0xac, 0x8d, 0xbe,
  0xca, 0x63, 0x52, 0x3e, 0x97, 0x13, 0x84, 0x3e, 0xb0, 0x11, 0x0d, 0x3d,
  0xfd, 0x65, 0xa0, 0x3e, 0x1a, 0xa5, 0x11, 0x3e, 0xbf, 0x89, 0x73, 0xbe,
  0x31, 0x83, 0xaa, 0xbd, 0xf3, 0xfa, 0xb6, 0x3e, 0x6b, 0x2f, 0xd2, 0x3e,
  0x5e, 0x59, 0x8f, 0xbe, 0xb7, 0xf0, 0x75, 0xbe, 0xae, 0x76, 0x5c, 0xbe,
  0x87, 0xfa, 0x8f, 0x3e, 0x3c, 0x45, 0xdf, 0x3d, 0x28, 0xe0, 0xc8, 0xbd,
  0xae, 0x9b, 0x82, 0xbd, 0xaa, 0x98, 0x67, 0x3e, 0x00, 0x19, 0x86, 0xbd,
  0x0e, 0x4f, 0x74, 0x3e, 0xcc, 0x38, 0x89, 0x3d, 0x46, 0xbe, 0xbc, 0x3d,
  0x68, 0x08, 0x96, 0x3e, 0x0d, 0x63, 0xb6, 0x3e, 0x0c, 0xce, 0xcc, 0x3e,
  0x46, 0x1b, 0x31, 0x3e, 0xe9, 0x51, 0x82, 0x3e, 0x6c, 0xa0, 0xe6, 0x3e,
  0xf3, 0xa3, 0x83, 0xbe, 0xe6, 0x9d, 0x57, 0x3e, 0xe2, 0x2c, 0x6f, 0x3e,
  0xcc, 0x90, 0xdf, 0xbd, 0x74, 0x30, 0x97, 0xbd, 0x38, 0xc4, 0x1e, 0xbe,
  0x50, 0x2e, 0x60, 0x3d, 0x8c, 0x90, 0xa1, 0x3d, 0xf6, 0x0f, 0x9f, 0xbe,
  0xf4, 0x7b, 0xa4, 0x3d, 0xf8, 0x46, 0x6b, 0xbd, 0x6d, 0x00, 0xbe, 0xbe,
  0x56, 0xc2, 0x98, 0xbe, 0x92, 0xe9, 0x3b, 0x3e, 0xab, 0xe5, 0xd6, 0xbe,
  0xb4, 0x2f, 0xa1, 0xbe, 0xbe, 0x23, 0x1a, 0xbe, 0x52, 0x17, 0x6f, 0xbe,
  0xa0, 0xe7, 0xc7, 0xbc, 0x00, 0x78, 0x28, 0xbb, 0xee, 0xfa, 0x19, 0x3d,
  0xe0, 0xdc, 0x9b, 0xbe, 0x04, 0x84, 0x80, 0xbd, 0x0b, 0x8d, 0x8f, 0xbe,
  0x80, 0x7a, 0x8c, 0xbe, 0x38, 0xd0, 0x87, 0xbe, 0xe8, 0x1d, 0xa6, 0x3e,
  0xa9, 0xad, 0xbb, 0x3e, 0x10, 0x29, 0x56, 0xbe, 0xd3, 0xc7, 0x8a, 0x3e,
  0x88, 0xfc, 0x8c, 0xbd, 0x70, 0xcc, 0x20, 0x3e, 0xd5, 0x36, 0x81, 0x3e,
  0x38, 0x2d, 0x60, 0x3e, 0xaf, 0xb0, 0xb3, 0xbe, 0x65, 0x6f, 0x80, 0x3e,
  0x22, 0x79, 0x64, 0x3e, 0x90, 0x7f, 0x58, 0x3d, 0xf5, 0xdf, 0x80, 0x3e,
  0xe4, 0xea, 0x7d, 0xbe, 0x83, 0x59, 0x9c, 0x3e, 0x5f, 0x61, 0x5f, 0xbe,
  0xa6, 0xd4, 0xb8, 0xbe, 0xbc, 0xba, 0xda, 0xbe, 0x47, 0x38, 0xb2, 0x3e,
  0xdb, 0x9a, 0x93, 0x3e, 0x5c, 0xe3, 0x87, 0xbe, 0x58, 0x62, 0x5b, 0xbe,
  0xfe, 0x46, 0x9d, 0xbe, 0x35, 0x6c, 0x30, 0xbe, 0x00, 0x8a, 0xd5, 0xbb,
  0xe1, 0xbb, 0x6d, 0xbe, 0xec, 0xd1, 0x36, 0x3d, 0x8c, 0x4b, 0xc3, 0x3d,
  0x87, 0x75, 0x53, 0xbd, 0xb9, 0x98, 0xcb, 0x3e, 0x61, 0x0e, 0xbf, 0x3e,
  0x81, 0xa3, 0x03, 0xbd, 0xb3, 0x76, 0x63, 0x3c, 0x2d, 0x86, 0xb0, 0xbe,
  0xb7, 0x31, 0x81, 0x3e, 0x00, 0xcc, 0xf9, 0xb9, 0xd5, 0x46, 0x6d, 0xbe,
  0xf8, 0xac, 0xba, 0x3e, 0x16, 0x31, 0x7b, 0x3e, 0x62, 0xf8, 0x25, 0xbb,
  0x61, 0x7c, 0xa8, 0x3e, 0x55, 0xdf, 0xd3, 0xbe, 0xe4, 0x1f, 0x20, 0xbd,
  0x4e, 0xc7, 0x7c, 0x3e, 0xc2, 0xb3, 0x38, 0x3d, 0xf8, 0xfd, 0x12, 0xbe,
  0x3a, 0x10, 0xd2, 0xbe, 0x98, 0x55, 0x8d, 0x3e, 0x02, 0x8d, 0xcf, 0xbe,
  0xaa, 0x8d, 0xab, 0x3d, 0xca, 0x20, 0x50, 0xbe, 0x96, 0xb3, 0xaf, 0xbe,
  0x5c, 0x4b, 0x82, 0xbe, 0xde, 0x06, 0xae, 0xbe, 0xdc, 0xb8, 0x95, 0x3d,
  0x3a, 0xa6, 0xba, 0x3c, 0xd2, 0xd5, 0x20, 0x3e, 0x00, 0x8f, 0xe7, 0x3c,
  0xc8, 0x27, 0x76, 0xbd, 0x30, 0x4f, 0xad, 0xbd, 0xc4, 0x68, 0x05, 0xbe,
  0x80, 0x03, 0x15, 0xbe, 0xe2, 0x51, 0x0a, 0x3e, 0x09, 0xf5, 0x77, 0xbe,
  0x40, 0x57, 0xbd, 0xbc, 0x34, 0x78, 0xf2, 0xbd, 0x1e, 0x84, 0x17, 0xbe,
  0x60, 0x92, 0x33, 0xbd, 0xae, 0x50, 0xc8, 0xbe, 0x5b, 0x1f, 0xc5, 0x3e,
  0x8c, 0x08, 0x06, 0xbe, 0x30, 0x06, 0xc2, 0xbd, 0x88, 0x15, 0xb5, 0xbd,
  0x0e, 0x40, 0x1d, 0xbe, 0xc2, 0x5f, 0x9d, 0xbe, 0x80, 0x79, 0xcd, 0xbc,
  0x50, 0x63, 0x58, 0xbd, 0xf2, 0x07, 0x01, 0x3e, 0x66, 0x3a, 0x00, 0xbe,
  0xfe, 0xba, 0x2d, 0x3e, 0x18, 0x47, 0xf0, 0x3e, 0x3a, 0x23, 0xda, 0x3e,
  0x66, 0x82, 0x6c, 0x3e, 0x94, 0x45, 0xeb, 0x3d, 0x9e, 0x12, 0xb0, 0xbe,
  0xcb, 0x80, 0xb2, 0x3d, 0x9e, 0x80, 0x9e, 0x3e, 0xd8, 0xc7, 0xb8, 0x3d,
  0xe2, 0xe9, 0x7d, 0x3e, 0x70, 0x61, 0x22, 0x3d, 0x13, 0x6a, 0xab, 0x3c,
  0x43, 0xc8, 0xac, 0x3e, 0x25, 0x5f, 0x78, 0xbe, 0x80, 0x12, 0x71, 0xbb,
  0x94, 0x68, 0xca, 0x3d, 0xf9, 0xe6, 0xde, 0x3e, 0x5c, 0x07, 0xf4, 0x3e,
  0x29, 0x7a, 0xdc, 0xbd, 0xc2, 0xf2, 0xbb, 0x3e, 0x00, 0x03, 0x08, 0xbc,
  0x76, 0x40, 0x37, 0xbe, 0x5d, 0x15, 0x18, 0xbe, 0xd3, 0xc0, 0x37, 0xbe,
  0x38, 0x82, 0xab, 0x3e, 0xab, 0xcd, 0x76, 0xbe, 0x40, 0x68, 0x55, 0x3d,
  0x9c, 0x9e, 0xac, 0xbe, 0x66, 0x99, 0x64, 0x3e, 0x4b, 0x3f, 0xa7, 0x3e,
  0x8c, 0x98, 0xb1, 0x3d, 0x7c, 0xd8, 0x2c, 0xbe, 0x3e, 0xf0, 0x7a, 0x3e,
  0x58, 0x31, 0x25, 0xbe, 0x7e, 0x51, 0xd0, 0xbe, 0xd1, 0x7c, 0xa1, 0x3e,
  0x60, 0x7f, 0xd5, 0xbe, 0xe4, 0xdc, 0xf6, 0x3d, 0xd6, 0xf3, 0x10, 0x3e,
  0xbf, 0x87, 0xa5, 0xbe, 0x8a, 0x94, 0x00, 0xbe, 0x14, 0x5e, 0x91, 0xbd,
  0x40, 0x3a, 0xc5, 0xbd, 0xb0, 0x68, 0x62, 0xbe, 0xf0, 0x14, 0x9e, 0xbc,
  0x25, 0x03, 0xda, 0x3e, 0x58, 0x89, 0x84, 0xbe, 0x29, 0x0c, 0xb7, 0xbe,
  0x57, 0xa3, 0x56, 0x3e, 0xf3, 0x01, 0xfe, 0xbd, 0x5d, 0x8d, 0x82, 0x3e,
  0xd4, 0xad, 0xc0, 0x3e, 0x40, 0x09, 0xd3, 0xbb, 0x2a, 0x8b, 0xb4, 0xbe,
  0x90, 0x31, 0x52, 0x3e, 0xd8, 0x0e, 0x12, 0x3e, 0x50, 0x1a, 0x4c, 0xbc,
  0xe5, 0x43, 0xc1, 0x3e, 0xde, 0x1f, 0xbd, 0xbe, 0xf0, 0xf7, 0x11, 0x3b,
  0x10, 0x28, 0x1c, 0x3d, 0xab, 0xe5, 0xfc, 0x3e, 0x22, 0x72, 0x7e, 0x3e,
  0x75, 0xff, 0x86, 0x3e, 0x97, 0x4e, 0xdc, 0x3e, 0xdf, 0xef, 0x90, 0xbe,
  0xb6, 0x84, 0xa6, 0xbe, 0xc7, 0xd0, 0x37, 0x3e, 0x3a, 0x0b, 0x9a, 0xbe,
  0x0c, 0x7f, 0xbc, 0x3d, 0xbd, 0xc3, 0xa4, 0xbd, 0xf2, 0xcd, 0x48, 0x3d,
  0x98, 0xd4, 0xb5, 0x3e, 0xc4, 0x15, 0xcb, 0x3d, 0xfa, 0x4f, 0x5d, 0xbe,
  0xd2, 0x86, 0x4b, 0x3d, 0x00, 0xa6, 0x72, 0xbe, 0xe1, 0x6c, 0xbe, 0x3e,
  0x86, 0x5d, 0x31, 0x3e, 0x4e, 0x8c, 0x08, 0xbe, 0xc8, 0x66, 0x0f, 0x3c,
  0x41, 0x56, 0xa6, 0x3e, 0xaf, 0x19, 0xf2, 0xbe, 0x63, 0x1b, 0xe5, 0xbc,
  0x91, 0x0d, 0xa8, 0x3e, 0x60, 0x80, 0xc9, 0xbc, 0x06, 0x5f, 0x92, 0xbe,
  0x81, 0x75, 0xc4, 0xbc, 0x1d, 0x38, 0x5f, 0xbf, 0xe0, 0x38, 0x0b, 0xbc,
  0xd8, 0x47, 0x17, 0xbe, 0xa2, 0xff, 0xff, 0xff, 0x04, 0x00, 0x00, 0x00,
  0x40, 0x00, 0x00, 0x00, 0xae, 0xe8, 0x1b, 0x3f, 0xa0, 0x2d, 0xa5, 0x3e,
  0xbe, 0x2d, 0xd0, 0xbe, 0x24, 0xc8, 0xc8, 0xbe, 0xb2, 0xc0, 0x14, 0x3f,
  0x38, 0x52, 0xf4, 0x3e, 0x07, 0xdc, 0xbf, 0xbe, 0xb3, 0x16, 0xfd, 0x3d,
  0xbf, 0xe8, 0xc3, 0x3e, 0x46, 0xee, 0xf5, 0xbe, 0x9f, 0x87, 0x1a, 0xbf,
  0x85, 0x29, 0x33, 0xbf, 0x0e, 0x34, 0x54, 0xbe, 0x43, 0xec, 0x1a, 0xbf,
  0x68, 0xe2, 0x1d, 0xbe, 0x2e, 0x80, 0x6a, 0xbf, 0xee, 0xff, 0xff, 0xff,
  0x04, 0x00, 0x00, 0x00, 0x04, 0x00, 0x00, 0x00, 0xb9, 0xba, 0x3c, 0x3e,
  0x00, 0x00, 0x06, 0x00, 0x08, 0x00, 0x04, 0x00, 0x06, 0x00, 0x00, 0x00,
  0x04, 0x00, 0x00, 0x00, 0x40, 0x00, 0x00, 0x00, 0x00, 0x72, 0x3c, 0x3e,
  0x72, 0x8b, 0x3b, 0x3e, 0xcb, 0x34, 0x4f, 0xbb, 0xfe, 0x6e, 0xfa, 0xbd,
  0x00, 0x00, 0x00, 0x00, 0x02, 0xda, 0x3a, 0x3e, 0x88, 0xaf, 0x74, 0x3e,
  0xbf, 0x7c, 0x25, 0x3e, 0x5b, 0xf6, 0x16, 0x3e, 0x00, 0x00, 0x00, 0x00,
  0xae, 0x78, 0x5d, 0xbe, 0xa0, 0x46, 0x99, 0xbd, 0x00, 0x00, 0x00, 0x00,
  0x8d, 0xf8, 0x97, 0xbd, 0xbe, 0x54, 0x9b, 0xbd, 0x53, 0x22, 0xf7, 0x3e,
  0x34, 0xfb, 0xff, 0xff, 0x38, 0xfb, 0xff, 0xff, 0x0f, 0x00, 0x00, 0x00,
  0x4d, 0x4c, 0x49, 0x52, 0x20, 0x43, 0x6f, 0x6e, 0x76, 0x65, 0x72, 0x74,
  0x65, 0x64, 0x2e, 0x00, 0x01, 0x00, 0x00, 0x00, 0x14, 0x00, 0x00, 0x00,
  0x00, 0x00, 0x0e, 0x00, 0x18, 0x00, 0x14, 0x00, 0x10, 0x00, 0x0c, 0x00,
  0x08, 0x00, 0x04, 0x00, 0x0e, 0x00, 0x00, 0x00, 0x14, 0x00, 0x00, 0x00,
  0x1c, 0x00, 0x00, 0x00, 0xe8, 0x00, 0x00, 0x00, 0xec, 0x00, 0x00, 0x00,
  0xf0, 0x00, 0x00, 0x00, 0x04, 0x00, 0x00, 0x00, 0x6d, 0x61, 0x69, 0x6e,
  0x00, 0x00, 0x00, 0x00, 0x03, 0x00, 0x00, 0x00, 0x90, 0x00, 0x00, 0x00,
  0x48, 0x00, 0x00, 0x00, 0x04, 0x00, 0x00, 0x00, 0xce, 0xff, 0xff, 0xff,
  0x10, 0x00, 0x00, 0x00, 0x00, 0x00, 0x00, 0x08, 0x0c, 0x00, 0x00, 0x00,
  0x10, 0x00, 0x00, 0x00, 0xb0, 0xfb, 0xff, 0xff, 0x01, 0x00, 0x00, 0x00,
  0x09, 0x00, 0x00, 0x00, 0x03, 0x00, 0x00, 0x00, 0x08, 0x00, 0x00, 0x00,
  0x03, 0x00, 0x00, 0x00, 0x02, 0x00, 0x00, 0x00, 0x00, 0x00, 0x0e, 0x00,
  0x14, 0x00, 0x00, 0x00, 0x10, 0x00, 0x0c, 0x00, 0x0b, 0x00, 0x04, 0x00,
  0x0e, 0x00, 0x00, 0x00, 0x10, 0x00, 0x00, 0x00, 0x00, 0x00, 0x00, 0x08,
  0x10, 0x00, 0x00, 0x00, 0x14, 0x00, 0x00, 0x00, 0xba, 0xff, 0xff, 0xff,
  0x00, 0x00, 0x00, 0x01, 0x01, 0x00, 0x00, 0x00, 0x08, 0x00, 0x00, 0x00,
  0x03, 0x00, 0x00, 0x00, 0x07, 0x00, 0x00, 0x00, 0x04, 0x00, 0x00, 0x00,
  0x01, 0x00, 0x00, 0x00, 0x00, 0x00, 0x0e, 0x00, 0x16, 0x00, 0x00, 0x00,
  0x10, 0x00, 0x0c, 0x00, 0x0b, 0x00, 0x04, 0x00, 0x0e, 0x00, 0x00, 0x00,
  0x18, 0x00, 0x00, 0x00, 0x00, 0x00, 0x00, 0x08, 0x18, 0x00, 0x00, 0x00,
  0x1c, 0x00, 0x00, 0x00, 0x00, 0x00, 0x06, 0x00, 0x08, 0x00, 0x07, 0x00,
  0x06, 0x00, 0x00, 0x00, 0x00, 0x00, 0x00, 0x01, 0x01, 0x00, 0x00, 0x00,
  0x07, 0x00, 0x00, 0x00, 0x03, 0x00, 0x00, 0x00, 0x00, 0x00, 0x00, 0x00,
  0x05, 0x00, 0x00, 0x00, 0x06, 0x00, 0x00, 0x00, 0x01, 0x00, 0x00, 0x00,
  0x09, 0x00, 0x00, 0x00, 0x01, 0x00, 0x00, 0x00, 0x00, 0x00, 0x00, 0x00,
  0x0a, 0x00, 0x00, 0x00, 0x68, 0x03, 0x00, 0x00, 0x14, 0x03, 0x00, 0x00,
  0xc0, 0x02, 0x00, 0x00, 0x80, 0x02, 0x00, 0x00, 0x40, 0x02, 0x00, 0x00,
  0xf4, 0x01, 0x00, 0x00, 0x90, 0x01, 0x00, 0x00, 0xfc, 0x00, 0x00, 0x00,
  0x60, 0x00, 0x00, 0x00, 0x04, 0x00, 0x00, 0x00, 0xd6, 0xfc, 0xff, 0xff,
  0x00, 0x00, 0x00, 0x01, 0x14, 0x00, 0x00, 0x00, 0x1c, 0x00, 0x00, 0x00,
  0x1c, 0x00, 0x00, 0x00, 0x0a, 0x00, 0x00, 0x00, 0x34, 0x00, 0x00, 0x00,
  0x02, 0x00, 0x00, 0x00, 0xff, 0xff, 0xff, 0xff, 0x01, 0x00, 0x00, 0x00,
  0xc0, 0xfc, 0xff, 0xff, 0x1b, 0x00, 0x00, 0x00, 0x53, 0x74, 0x61, 0x74,
  0x65, 0x66, 0x75, 0x6c, 0x50, 0x61, 0x72, 0x74, 0x69, 0x74, 0x69, 0x6f,
  0x6e, 0x65, 0x64, 0x43, 0x61, 0x6c, 0x6c, 0x5f, 0x31, 0x3a, 0x30, 0x00,
  0x02, 0x00, 0x00, 0x00, 0x01, 0x00, 0x00, 0x00, 0x01, 0x00, 0x00, 0x00,
  0x2e, 0xfd, 0xff, 0xff, 0x00, 0x00, 0x00, 0x01, 0x14, 0x00, 0x00, 0x00,
  0x1c, 0x00, 0x00, 0x00, 0x1c, 0x00, 0x00, 0x00, 0x09, 0x00, 0x00, 0x00,
  0x74, 0x00, 0x00, 0x00, 0x02, 0x00, 0x00, 0x00, 0xff, 0xff, 0xff, 0xff,
  0x10, 0x00, 0x00, 0x00, 0x18, 0xfd, 0xff, 0xff, 0x58, 0x00, 0x00, 0x00,
  0x73, 0x65, 0x71, 0x75, 0x65, 0x6e, 0x74, 0x69, 0x61, 0x6c, 0x5f, 0x31,
  0x2f, 0x64, 0x65, 0x6e, 0x73, 0x65, 0x5f, 0x31, 0x5f, 0x32, 0x2f, 0x4d,
  0x61, 0x74, 0x4d, 0x75, 0x6c, 0x3b, 0x73, 0x65, 0x71, 0x75, 0x65, 0x6e,
  0x74, 0x69, 0x61, 0x6c, 0x5f, 0x31, 0x2f, 0x64, 0x65, 0x6e, 0x73, 0x65,
  0x5f, 0x31, 0x5f, 0x32, 0x2f, 0x52, 0x65, 0x6c, 0x75, 0x3b, 0x73, 0x65,
  0x71, 0x75, 0x65, 0x6e, 0x74, 0x69, 0x61, 0x6c, 0x5f, 0x31, 0x2f, 0x64,
  0x65, 0x6e, 0x73, 0x65, 0x5f, 0x31, 0x5f, 0x32, 0x2f, 0x42, 0x69, 0x61,
  0x73, 0x41, 0x64, 0x64, 0x00, 0x00, 0x00, 0x00, 0x02, 0x00, 0x00, 0x00,
  0x01, 0x00, 0x00, 0x00, 0x10, 0x00, 0x00, 0x00, 0xc6, 0xfd, 0xff, 0xff,
  0x00, 0x00, 0x00, 0x01, 0x14, 0x00, 0x00, 0x00, 0x1c, 0x00, 0x00, 0x00,
  0x1c, 0x00, 0x00, 0x00, 0x08, 0x00, 0x00, 0x00, 0x6c, 0x00, 0x00, 0x00,
  0x02, 0x00, 0x00, 0x00, 0xff, 0xff, 0xff, 0xff, 0x10, 0x00, 0x00, 0x00,
  0xb0, 0xfd, 0xff, 0xff, 0x52, 0x00, 0x00, 0x00, 0x73, 0x65, 0x71, 0x75,
  0x65, 0x6e, 0x74, 0x69, 0x61, 0x6c, 0x5f, 0x31, 0x2f, 0x64, 0x65, 0x6e,
  0x73, 0x65, 0x5f, 0x31, 0x2f, 0x4d, 0x61, 0x74, 0x4d, 0x75, 0x6c, 0x3b,
  0x73, 0x65, 0x71, 0x75, 0x65, 0x6e, 0x74, 0x69, 0x61, 0x6c, 0x5f, 0x31,
  0x2f, 0x64, 0x65, 0x6e, 0x73, 0x65, 0x5f, 0x31, 0x2f, 0x52, 0x65, 0x6c,
  0x75, 0x3b, 0x73, 0x65, 0x71, 0x75, 0x65, 0x6e, 0x74, 0x69, 0x61, 0x6c,
  0x5f, 0x31, 0x2f, 0x64, 0x65, 0x6e, 0x73, 0x65, 0x5f, 0x31, 0x2f, 0x42,
  0x69, 0x61, 0x73, 0x41, 0x64, 0x64, 0x00, 0x00, 0x02, 0x00, 0x00, 0x00,
  0x01, 0x00, 0x00, 0x00, 0x10, 0x00, 0x00, 0x00, 0xa6, 0xfe, 0xff, 0xff,
  0x00, 0x00, 0x00, 0x01, 0x10, 0x00, 0x00, 0x00, 0x10, 0x00, 0x00, 0x00,
  0x07, 0x00, 0x00, 0x00, 0x44, 0x00, 0x00, 0x00, 0x30, 0xfe, 0xff, 0xff,
  0x36, 0x00, 0x00, 0x00, 0x73, 0x65, 0x71, 0x75, 0x65, 0x6e, 0x74, 0x69,
  0x61, 0x6c, 0x5f, 0x31, 0x2f, 0x64, 0x65, 0x6e, 0x73, 0x65, 0x5f, 0x31,
  0x2f, 0x52, 0x65, 0x6c, 0x75, 0x3b, 0x73, 0x65, 0x71, 0x75, 0x65, 0x6e,
  0x74, 0x69, 0x61, 0x6c, 0x5f, 0x31, 0x2f, 0x64, 0x65, 0x6e, 0x73, 0x65,
  0x5f, 0x31, 0x2f, 0x42, 0x69, 0x61, 0x73, 0x41, 0x64, 0x64, 0x00, 0x00,
  0x01, 0x00, 0x00, 0x00, 0x10, 0x00, 0x00, 0x00, 0x06, 0xff, 0xff, 0xff,
  0x00, 0x00, 0x00, 0x01, 0x10, 0x00, 0x00, 0x00, 0x10, 0x00, 0x00, 0x00,
  0x06, 0x00, 0x00, 0x00, 0x28, 0x00, 0x00, 0x00, 0x90, 0xfe, 0xff, 0xff,
  0x1b, 0x00, 0x00, 0x00, 0x73, 0x65, 0x71, 0x75, 0x65, 0x6e, 0x74, 0x69,
  0x61, 0x6c, 0x5f, 0x31, 0x2f, 0x64, 0x65, 0x6e, 0x73, 0x65, 0x5f, 0x31,
  0x2f, 0x4d, 0x61, 0x74, 0x4d, 0x75, 0x6c, 0x00, 0x02, 0x00, 0x00, 0x00,
  0x10, 0x00, 0x00, 0x00, 0x01, 0x00, 0x00, 0x00, 0x4e, 0xff, 0xff, 0xff,
  0x00, 0x00, 0x00, 0x01, 0x10, 0x00, 0x00, 0x00, 0x10, 0x00, 0x00, 0x00,
  0x05, 0x00, 0x00, 0x00, 0x1c, 0x00, 0x00, 0x00, 0xd8, 0xfe, 0xff, 0xff,
  0x0f, 0x00, 0x00, 0x00, 0x61, 0x72, 0x69, 0x74, 0x68, 0x2e, 0x63, 0x6f,
  0x6e, 0x73, 0x74, 0x61, 0x6e, 0x74, 0x33, 0x00, 0x02, 0x00, 0x00, 0x00,
  0x10, 0x00, 0x00, 0x00, 0x10, 0x00, 0x00, 0x00, 0x8a, 0xff, 0xff, 0xff,
  0x00, 0x00, 0x00, 0x01, 0x10, 0x00, 0x00, 0x00, 0x10, 0x00, 0x00, 0x00,
  0x04, 0x00, 0x00, 0x00, 0x1c, 0x00, 0x00, 0x00, 0x14, 0xff, 0xff, 0xff,
  0x0f, 0x00, 0x00, 0x00, 0x61, 0x72, 0x69, 0x74, 0x68, 0x2e, 0x63, 0x6f,
  0x6e, 0x73, 0x74, 0x61, 0x6e, 0x74, 0x32, 0x00, 0x02, 0x00, 0x00, 0x00,
  0x01, 0x00, 0x00, 0x00, 0x10, 0x00, 0x00, 0x00, 0xc6, 0xff, 0xff, 0xff,
  0x00, 0x00, 0x00, 0x01, 0x10, 0x00, 0x00, 0x00, 0x10, 0x00, 0x00, 0x00,
  0x03, 0x00, 0x00, 0x00, 0x1c, 0x00, 0x00, 0x00, 0x50, 0xff, 0xff, 0xff,
  0x0f, 0x00, 0x00, 0x00, 0x61, 0x72, 0x69, 0x74, 0x68, 0x2e, 0x63, 0x6f,
  0x6e, 0x73, 0x74, 0x61, 0x6e, 0x74, 0x31, 0x00, 0x01, 0x00, 0x00, 0x00,
  0x01, 0x00, 0x00, 0x00, 0x00, 0x00, 0x16, 0x00, 0x18, 0x00, 0x14, 0x00,
  0x00, 0x00, 0x10, 0x00, 0x0c, 0x00, 0x08, 0x00, 0x00, 0x00, 0x00, 0x00,
  0x00, 0x00, 0x07, 0x00, 0x16, 0x00, 0x00, 0x00, 0x00, 0x00, 0x00, 0x01,
  0x10, 0x00, 0x00, 0x00, 0x10, 0x00, 0x00, 0x00, 0x02, 0x00, 0x00, 0x00,
  0x1c, 0x00, 0x00, 0x00, 0xa0, 0xff, 0xff, 0xff, 0x0e, 0x00, 0x00, 0x00,
  0x61, 0x72, 0x69, 0x74, 0x68, 0x2e, 0x63, 0x6f, 0x6e, 0x73, 0x74, 0x61,
  0x6e, 0x74, 0x00, 0x00, 0x01, 0x00, 0x00, 0x00, 0x10, 0x00, 0x00, 0x00,
  0x00, 0x00, 0x16, 0x00, 0x1c, 0x00, 0x18, 0x00, 0x00, 0x00, 0x14, 0x00,
  0x10, 0x00, 0x0c, 0x00, 0x00, 0x00, 0x00, 0x00, 0x08, 0x00, 0x07, 0x00,
  0x16, 0x00, 0x00, 0x00, 0x00, 0x00, 0x00, 0x01, 0x14, 0x00, 0x00, 0x00,
  0x20, 0x00, 0x00, 0x00, 0x20, 0x00, 0x00, 0x00, 0x01, 0x00, 0x00, 0x00,
  0x3c, 0x00, 0x00, 0x00, 0x02, 0x00, 0x00, 0x00, 0xff, 0xff, 0xff, 0xff,
  0x01, 0x00, 0x00, 0x00, 0x04, 0x00, 0x04, 0x00, 0x04, 0x00, 0x00, 0x00,
  0x1e, 0x00, 0x00, 0x00, 0x73, 0x65, 0x72, 0x76, 0x69, 0x6e, 0x67, 0x5f,
  0x64, 0x65, 0x66, 0x61, 0x75, 0x6c, 0x74, 0x5f, 0x6b, 0x65, 0x72, 0x61,
  0x73, 0x5f, 0x74, 0x65, 0x6e, 0x73, 0x6f, 0x72, 0x3a, 0x30, 0x00, 0x00,
  0x02, 0x00, 0x00, 0x00, 0x01, 0x00, 0x00, 0x00, 0x01, 0x00, 0x00, 0x00,
  0x01, 0x00, 0x00, 0x00, 0x10, 0x00, 0x00, 0x00, 0x0c, 0x00, 0x0c, 0x00,
  0x0b, 0x00, 0x00, 0x00, 0x00, 0x00, 0x04, 0x00, 0x0c, 0x00, 0x00, 0x00,
  0x09, 0x00, 0x00, 0x00, 0x00, 0x00, 0x00, 0x09
};

#endif //SINEWAVE_MODEL_H