/**
  ******************************************************************************
  * @file    sinewave_model_data_params.c
  * @author  AST Embedded Analytics Research Platform
  * @date    2026-01-03T13:56:51+0530
  * @brief   AI Tool Automatic Code Generator for Embedded NN computing
  ******************************************************************************
  * Copyright (c) 2026 STMicroelectronics.
  * All rights reserved.
  *
  * This software is licensed under terms that can be found in the LICENSE file
  * in the root directory of this software component.
  * If no LICENSE file comes with this software, it is provided AS-IS.
  ******************************************************************************
  */

#include "sinewave_model_data_params.h"


/**  Activations Section  ****************************************************/
ai_handle g_sinewave_model_activations_table[1 + 2] = {
  AI_HANDLE_PTR(AI_MAGIC_MARKER),
  AI_HANDLE_PTR(NULL),
  AI_HANDLE_PTR(AI_MAGIC_MARKER),
};




/**  Weights Section  ********************************************************/
AI_ALIGNED(32)
const ai_u64 s_sinewave_model_weights_array_u64[161] = {
  0x3f075856befa93d8U, 0xbf0f0b203e635a91U, 0x3eeb68513e9cb9b6U, 0xbf146df1be5a02f2U,
  0xbe5a514a3ea0db3fU, 0xbd145e303eeb37caU, 0x3a15a4c5be914e98U, 0xbdeb3d903e94c0beU,
  0xbcc3476800000000U, 0x3f6cd531U, 0xbf1c9f08bf4017d1U, 0x0U,
  0xbe7b827fU, 0xbee0f31aU, 0xbbdc4c0c00000000U, 0x3e31c683U,
  0x3e31f635bea87644U, 0x3e6df0aebf151919U, 0x3eb13b7c3f4602cfU, 0xbe912a0bbe4f2f21U,
  0xbe9c0deabe2bf08cU, 0x3dc7080c3ed7efaaU, 0x3e6e95863eaa3d4bU, 0xbe8fe4ebbe761ac9U,
  0xbd133cfe3e8018adU, 0xbde0257c3e1af8c5U, 0x3deda6ac3e9c6337U, 0x3e80cc333ddb5c64U,
  0xbe838cfb3e9e1ec5U, 0xbcdfb1b0bce6ea70U, 0xbece796e3d2c6518U, 0xbd8ceb7c3d5f4e5aU,
  0x3d3fed32be4e78c0U, 0xbebd4467be97366aU, 0x3ebb714abebf6749U, 0x3d9ff0d43c47aa20U,
  0xbd22af60bda11a82U, 0x3ebfd1333eb5f3caU, 0x3ea101e5be207706U, 0x3ea56c7bbee072dfU,
  0xbe99158b3e853e4bU, 0xbcd7d320be4dd256U, 0xbdf45af83e33cb8aU, 0xbea7b192bed6a317U,
  0xbebae095bea3c702U, 0x3ddf7cf4bd9a3d04U, 0xbdeb3dd4beac0734U, 0xbe9ad354bd90726cU,
  0x3c5b610fbe0b8530U, 0xbed354ddbc8dd6b8U, 0xbea53269be930c5eU, 0xbe4f5f1dbeade61eU,
  0x3e853fa93ece410bU, 0xbd86d52cbe673ebbU, 0x3d9483443e466252U, 0x3e3fe852bdd34683U,
  0x3d1ee34abe488091U, 0xbe9f5a693f122005U, 0xbe99dc27bf85b533U, 0x3e9189b3be0c1e5eU,
  0x3e70ca56bf1f3deeU, 0xbd76cdc03e55cd63U, 0x3e1db4d2bec46e0cU, 0x3e3a3ff2be7528c3U,
  0x3f0167193ebf401bU, 0xbe65bb1c3e73f289U, 0xbe861840be90ce6eU, 0xbe8b93193ec2885bU,
  0xbda045ccbefccdfeU, 0x3dfc2f7cbefa9b63U, 0xbe8831cb3c8cd9a0U, 0xbe7e0b5ebd89d5ceU,
  0x3ddcc067bcf2f9d0U, 0x3e50a6ca3e957640U, 0x3e505c0bbead38ccU, 0xbec0cd1abea76fd8U,
  0xbe2f81583ea11ca5U, 0x3ed743933e8186b9U, 0x3ec9156e3e7a8f02U, 0xbea7c1783d858adcU,
  0x3e9e444a3d1f07d8U, 0x3ebcfff9be943166U, 0x3eadd0a73db5f146U, 0x3e943883bdcd0db4U,
  0xbed10002beeeeecdU, 0x3d7721a83e4d00f3U, 0xbdeba42b3e4c13daU, 0x3e7015b63e8f1e0aU,
  0x3dad49bebebd117fU, 0xbe913d6c3dc1697eU, 0xbe7ab9e23ef493b9U, 0x3e1951c2beaa8ea2U,
  0x3ed0f88b3ebd1a47U, 0xbe5dd02dbe2e02f4U, 0x3daa7598bcf8cf80U, 0xbc20be003e887b97U,
  0x3d06fadd3e2819eaU, 0x3ce78db0bd4cb4b7U, 0xbec7729cbc7b6f60U, 0xbeb8c953be815fb8U,
  0x3d199120beac074dU, 0xbea9fb8ebed819b0U, 0x3e556232be9e958aU, 0xbd2fd7783e0786bcU,
  0xbefbcc6bbb307400U, 0xbdc8c0603e23d35aU, 0xbe8faaefbe2d5376U, 0x3ebc91cdbd940cd8U,
  0x3ea5a901bf078f03U, 0xbd8fd2b0bc5d2bcaU, 0x3e4251da3e86f337U, 0x3edc0651be0fc5a5U,
  0xbec428253db75824U, 0xbedb2e26be79bb2fU, 0x3e3b3f2ebe01476eU, 0xbe8597883e4a51faU,
  0x3e89695bbdf23a90U, 0xbe27ee5ebe0b9cbcU, 0xbe2f82ea3eb4e607U, 0x3e9aa46dbdc82470U,
  0xbed21d53bea0cdd4U, 0xbec638843f05aa94U, 0xbe4dc24e3eb07d63U, 0xbe8e85b0bea70587U,
  0xbdc072e43e1fa329U, 0xbec69940bf22c6f3U, 0xbbdeafc0be08a6eeU, 0x3eb44cefbf56685dU,
  0xbd710c81bd4708d0U, 0x3ebfe4d5bd6f93bbU, 0x3eacff833e56548fU, 0x3e03ce763ec1d8f3U,
  0xbe9d025d3da608b6U, 0xbe1ce4da3ef01628U, 0xbea6451bbe6aa8daU, 0xbe9c95c63e21e9f0U,
  0xbe980a083ec1a03dU, 0x3e667c6abd3f7d87U, 0x3d3e6d00bddb85e8U, 0x3d9198d43ea47073U,
  0x3e9ed7abbeb2c4b1U, 0xbe8b8e78bdf5b1a4U, 0x3ec1e4f73d863780U, 0x3ec719553e8b6c9cU,
  0xbe3923e1bf1facdfU, 0xbc1356f7U, 0x3ec3cf3cbad75dc2U, 0xbcb988bc3eab26b6U,
  0xbe523758be2543c9U, 0x3e580b89bc667563U, 0x3f0b54ea00000000U, 0xbbfb51a93dee849dU,
  0x3e1fe0374000ef0bU, 0x3e772dc8bcc737ecU, 0x3f873189bed25099U, 0xbe433d2a3f8e4083U,
  0x3dac36623f0db322U, 0xbf0c07053e6ff17cU, 0xbf8cc3203eafb8a6U, 0x3c851c78bf239d64U,
  0xbe5e62d5U,
};


ai_handle g_sinewave_model_weights_table[1 + 2] = {
  AI_HANDLE_PTR(AI_MAGIC_MARKER),
  AI_HANDLE_PTR(s_sinewave_model_weights_array_u64),
  AI_HANDLE_PTR(AI_MAGIC_MARKER),
};

